// cold_fc1_weights - Q1.15 format
// Shape: (22, 32)
// Count: 704

02F3
0997
3508
12DB
0E70
E86C
DDF3
CFE0
D8FD
DD5B
0B7F
E5B5
F3E4
E57E
F92E
178A
1BA1
C1E1
DA70
BC59
1819
DCAF
F8A0
1FE4
2EDE
D68A
BAFE
FCD1
0C08
DCE5
3887
1B0A
0EA5
12ED
3406
C60B
1C88
F341
C1B8
FF49
E698
2103
1353
30BA
D943
07E9
CEE9
15AF
321F
1A06
1AC5
E78E
CB80
2585
E193
2E53
E786
EA49
F807
3B4A
D582
EF45
FE85
CDAE
0AF1
E883
EF66
0D9E
11F6
FF4A
00CE
1C92
0708
1130
0B08
EF4C
FDEB
F3E2
E651
E7F4
0653
08B3
0EBF
FEB2
0C78
F140
061C
DF86
FBDC
074E
F647
1D48
FBC9
0E9D
178F
2018
FC2A
163F
EBB2
F795
19F2
E2E2
03A5
0208
0715
068F
0E0F
1223
E65E
E773
EAAE
0676
035E
FE1E
0823
22DA
1BD8
1AAA
F210
0E7C
FCEF
FE9A
F94A
0894
0F37
DB39
0FBE
FC4B
068B
F1E4
116B
2486
2209
DC8B
F83D
FD12
FED1
03F7
F847
085C
EAF5
0565
083E
00D7
0A24
F1FE
184C
CDE2
C57A
0C52
DCE6
20A6
23D8
E646
CDA4
4954
FC1B
1A1B
3EC3
08DA
0984
1B8E
E161
E5EB
FA8F
CB46
DCB3
FD86
1210
1DA5
F1C2
1DEF
0B9E
2CE1
F638
D81D
10D9
30DB
FA62
DBCF
E914
0CB9
E6A3
1661
D9F6
369D
450B
1553
F661
0A01
DAA3
D4F8
FC6A
F654
F298
EF8C
E2EF
042F
0C8F
E9CE
E878
EF4D
EEB1
120A
E999
EC6D
EB4A
177B
03BE
FAD0
E88F
0DA3
DFB2
1880
0F71
FF52
117E
157F
F915
1EEC
1E25
05A5
F590
0C76
FA7C
FCA1
EA7F
ED09
00A7
F0BA
FECA
00DD
0470
1B1E
EEFC
04FC
FA85
0101
0087
1187
0D56
FF35
07CA
EF08
0136
F11C
1532
0169
0774
F71E
08FA
F7CF
1081
FC54
F7C6
F886
ED83
0E99
E7C0
ECF3
0B69
00D8
0F23
16BE
074A
05CD
F16C
FA93
2176
1C99
010C
F386
EA34
0A02
E6B6
13C3
0A13
E00E
1FC9
1AA8
0196
17C2
E06A
0671
033B
085A
FCDF
F31A
D934
1DA7
29EE
0B3B
1420
E804
F8D2
02E7
0425
F8B9
DDA3
E2D4
03F4
EC71
1BD8
21A1
F1C6
D7A2
E90C
F4ED
1266
E6DF
F6E3
116A
0B0F
F8B2
F08D
0F1C
F685
EEDE
F961
0831
E5CC
FA40
F024
1338
018E
0770
EB99
13DC
F379
0889
EBFB
ED54
F7D8
FD34
F9E9
0427
0266
F02D
0BA6
0CD7
0F1F
15F2
F0AF
FB14
E98D
0D5F
079D
0814
EFC5
FE7B
06BB
F726
E5DA
FCA8
03BA
0ADB
EAE7
09F1
1105
FB73
FFC8
0678
11F1
E2E8
FDE0
0B01
0358
07FC
F13D
F9D9
F4D0
F2DC
FACD
0521
FF41
EAC4
FA47
07F9
EE06
0316
072B
1FAB
0BAF
1100
107B
0B59
14C1
0248
EDFC
0A8F
FF47
02F9
15FF
E934
23B6
F9E6
E58E
FF2B
F057
F9DB
FAD6
00F8
FC7E
FA43
085E
1156
133E
00BC
FF44
E724
FC0F
0DDC
011D
FA14
0996
01B1
F767
F6D4
048C
F6D7
CC03
16ED
1771
1204
F374
F7DA
0DF7
098A
03A2
093D
EA73
04A3
106C
1732
125E
FD4E
0A6E
0E85
0634
FC87
FD24
E7D1
1237
03CD
FB42
0C1A
F4D4
F0D4
0BD4
1C6C
112C
F6A3
13B4
0048
0F8A
FA4D
0390
F815
EF6C
1BE8
0569
F864
FFA7
1A16
0626
174B
F9CB
EA8F
0647
DD5C
040D
0041
F845
FF8D
09E1
EE0A
1BBF
ED18
EBEA
E6C7
0EA8
E0A8
FEEF
EDC5
01D9
15CF
F719
0C67
FFA7
FB07
1847
FFB0
08EF
F6B8
108B
F8B7
FB9A
0861
FEB0
13D7
F4E5
FEAE
F853
FED1
03F0
EA31
E82D
FFFA
EACE
FC54
1314
F7EE
1052
04AA
FB46
02AE
06F0
02D3
FAA9
EFBD
1C8B
1B2F
E8D6
0D65
0938
F2BB
06FF
F7A9
0AE4
FA6E
0663
F631
F192
F2FC
FB04
F319
EBDF
F4AF
029A
F56D
ECD0
0597
0AFF
E6CA
FD1E
EDB1
F3E1
0C48
0F5E
0346
FEE2
E616
1787
F47B
EA78
FE3D
0763
EB85
0E28
EA5E
DF16
0804
E624
0040
E915
F84C
E910
0809
1374
F906
12BD
F995
10B7
0893
FB77
0A0F
0ECC
0258
0456
0591
F4A2
FD61
FA1E
F167
FB7E
FC54
129D
F1C9
0434
1451
13C2
E472
F843
F9E1
07B5
03EF
0893
0A33
00CC
013C
08E5
F070
123C
F6AB
EE53
0B1F
F520
0F9A
0A66
1963
0B13
FC32
0713
02F6
02D6
09D4
E639
05D7
00B1
0A91
02E4
0263
F2AE
F22A
03D8
FEEA
F78B
F884
197C
0502
0184
067B
06D4
16FA
1055
01D0
11C7
F781
F524
01FB
F659
F084
FEF8
01CD
0530
F29F
0A32
FEE3
07E6
091D
08A6
FB3D
FF58
0436
FEEB
FD41
03B4
F9D4
E64D
1665
047B
EC0E
F302
0610
05E2
F011
02BF
FBFB
F3C4
05F3
F52C
0F23
F1C9
196E
F516
1E64
0A2E
0411
FA6A
0497
E153
FA4A
08F6
0BFF
095C
FCF6
FD2A
0B47
132E
EE18
1409
F997
075E
11A1
13F5
F9AA
F1F5
E77E
F87C
FAF3
F1B2
FA1E
F800
EA70
