// cold_fc2_weights - Q1.15 format
// Shape: (32, 16)
// Count: 512

0B0E
074A
EEFC
06B2
0390
10E7
FFAC
EC6B
06C8
FE58
0FC8
F46D
ED38
FE92
1579
F0BC
FC7D
0DFC
FFE4
0EE0
19E6
01AB
1699
0A4C
FAA2
06FF
F5B9
FF58
1176
166E
FE5C
17D9
1646
EA04
2622
1060
3A6C
F4E3
1C65
18C3
E2A8
E673
ED6E
0FCA
0EB2
DA36
F95E
E801
EF22
FD2E
1095
E85B
01F1
013F
05F0
06E8
F91E
0670
FDD9
0FF4
15C0
0582
1898
EC5F
0F96
EE0F
12CF
066A
150F
F0AB
10A3
04A4
15E3
0604
0D7E
0548
297B
EEC0
0172
EEF8
072B
FD48
F740
0921
EA3B
F0B1
E177
0D0F
0999
2775
ECD1
E958
0694
0D91
0FA9
0847
E1BF
08BF
EB76
FDD5
E19A
02F8
E199
F722
1CE7
31A2
F214
0706
3210
1DDD
0F87
0CB3
11E8
1C88
F064
0CC3
FA72
F7FB
F705
E5CE
FC85
0E30
F611
E8BC
03E0
FD39
00DA
015C
12FE
0645
EB23
FE9B
F7B9
FC5E
0C79
EC0F
119F
F41A
F981
EFAA
1676
1D5D
F4AD
1A2F
0E40
FA9A
FD53
FE58
FF2B
12AD
188B
04EB
07C2
12CB
1A00
E982
0436
EBD5
F79C
106F
E1A6
FF1A
FDA7
F81F
FABA
F880
069D
FA6B
EFED
E865
FBD8
E5F9
D27C
04D9
034B
F18C
1666
14C6
E654
038F
0A4B
122C
0E3E
E0CE
056F
1A83
17FE
F2B3
1182
F822
FA6B
1D69
048B
FFD7
FFD5
0B22
E552
0C74
F430
FAD4
1D77
ECD4
17C6
F94E
FA2C
F79D
1726
0B61
2248
F04C
042A
0E5D
F34E
1BB8
FF69
F647
06DA
0436
191F
F441
0D34
153D
06DE
1196
00B6
0C5C
F214
0EDB
0B45
F46E
EFC0
F9B2
145B
11F3
FD10
1DFD
07D0
1372
FCF5
ED63
F688
F2FC
140C
183B
1C5A
022F
087E
0AEC
0054
EA33
0C2C
0768
F753
02B6
145B
04E4
0A76
09B7
F957
267D
220C
F99D
126B
F6B8
F578
0B1B
F660
F932
D11F
EDB2
F7BE
FC08
281D
163C
E4D0
EF87
FFE4
2142
17A0
D977
0BF1
2294
0F84
E9AC
E1F3
12E1
0997
0597
1A2A
14AC
0787
FF5D
0DCF
0AAF
1FBB
FCEB
F4EB
0FDF
FFC3
E986
FCAF
02CD
0160
10DA
FE28
1F21
EC79
F305
14ED
EF51
0480
F7C4
1F55
270B
0E9F
E574
15F5
1F08
0740
F1F6
ED8E
FBD3
FF92
EE3B
EC2A
F654
EC8A
FDAD
08F8
E0A9
0136
112A
38BA
00CE
1E8F
040F
272D
FD08
00BF
F3C9
0A97
1045
14E0
EE2E
FDE8
F67E
1FCA
E42B
FA52
EB91
F0B1
F15D
F153
1660
002F
EB47
0D2E
0B32
0813
1423
0C08
F74A
0355
0049
1419
1EB1
19B0
0BC9
0CC8
EC57
1F56
2056
0EAF
0473
04A0
FE00
F2A0
F0C4
FA29
059D
CE37
E9FB
EE58
1C4E
007A
E80E
2A1F
F762
078D
F264
051C
1F99
0287
E1FD
E4D5
2DF0
07EF
E099
164C
F1E5
FF3D
FB6A
F34E
E741
ED46
1ACC
EBC4
E435
075B
0B26
11B6
F412
1B2D
1D25
EA66
F3B6
0106
1A21
F34F
F397
F7CF
1931
02E8
E1CF
09B2
1675
1145
E73C
F738
2C1E
FC69
19D0
0F66
EE83
FEA7
0841
29DF
18F1
0A19
0FE6
FC62
1209
0F5D
F7D6
0BE3
095F
0D50
FF46
EAED
1157
FAEB
FCCF
FF70
E38C
E6E5
13F5
0564
EDE9
E6DD
1040
1C9C
07F0
0DF2
0040
1537
FA6E
E9A6
FD75
F4C7
FB5E
0849
E609
1A81
03A4
27D7
0AC6
E8D5
0BC3
EC06
0AB8
FFF0
E65D
21A4
24E0
2B1C
F155
1E44
1D91
0FAF
CC4C
F9FE
343C
0979
02A0
27D3
F757
0EC5
085E
061C
F685
FD64
FEF6
FAD7
18EA
1679
005A
FF86
1EFB
10F8
1939
0E4B
F015
