// hot_fc2_weights - Q1.15 format
// Shape: (32, 16)
// Count: 512

260C
219B
2318
E434
EA85
0363
F73B
10F2
F445
E838
EF74
FDF6
221E
F27D
F9D1
0C29
1BDB
FD1E
033E
EA97
02E7
0823
F732
1491
E6D7
EB0E
E748
EA07
1B10
0E9A
05E8
0385
CFA1
F914
DDFA
1824
1E13
05BB
0452
F3E7
F221
14FB
1C8B
08D2
1666
FC79
09A1
146D
E5EE
F157
E229
0A1C
1FC5
0988
05EF
FF4F
0F5F
123E
FE53
1641
018B
0676
1AA6
FD94
21C6
0EAD
F5F8
EE1D
088E
0F89
0222
0972
FFB2
FCE0
1E5C
0080
0738
E6D1
F3CD
EFFD
08E0
018B
0B92
0F1C
1761
FD1F
E520
0EC3
02E7
F5C0
F64B
1BF4
128D
ED48
18BE
1E2A
0414
07B8
0744
1DA7
110A
0820
03B2
02BF
2205
1D16
1B03
F5D7
F750
078E
0BCD
0D03
FCF3
F096
10E7
00AC
F61D
FD0A
F651
0C10
F6A0
F972
1A66
19AC
1DA1
F48E
FA9A
015D
11F5
2473
14BD
ED6E
DDD0
F0D6
1E9E
E239
F2F9
F1D8
1666
F1D4
F2C8
151C
0B8E
FD9B
12D1
F807
0A6C
12EE
E6CB
016C
E095
2DFF
F267
FAC1
FD0E
0312
2410
07A6
11D7
10DE
18DF
1FAF
FF0D
DC0F
E326
ED6F
FF81
FED0
E90A
F302
0E42
EEB7
FDD4
FC89
FD0E
F832
11A0
FE9A
06EE
0E68
EB99
1302
03B7
F6FA
0007
04E5
1638
F100
14EC
FEBF
0F85
FFEE
EF27
F421
F87E
0F98
12B2
14A8
F1CB
25BC
EDA5
EB57
EA76
FE57
1D93
0625
FDD5
1A50
F59F
F603
0F16
0666
0F3E
1D0D
E2E1
2B81
ED09
269C
ECDB
FF3E
0308
0914
1AF5
0E90
FB5E
1184
D60E
1AC1
0B8C
004C
3D8E
D5C1
0EA1
EE40
3505
FBBB
EC81
0DB2
08EF
FD00
FCEA
FDA1
0199
EE41
1065
06F2
F920
07EF
FCEA
F8B9
159A
060B
1324
0E4C
0F3D
FFBE
E828
F5D6
0564
15D3
0393
E4B8
E426
22C6
FE4C
1C68
FCA2
1465
1805
FE29
02AC
0429
2A6C
0FDB
F9BC
D474
DEE2
0849
1C93
0813
0017
F05F
E6A1
ECEC
08FB
1045
E54E
070A
2944
0646
0A07
F1EE
E5F3
EEDF
2914
D92B
27D9
0E16
2C71
0C37
DFDB
0CDB
FC75
F29D
0CE4
EAA0
EEEB
F7D3
FA6C
F0A0
0607
FFBC
1CDE
FC4A
1F70
EEDF
0226
F2DE
F603
0207
EC7B
23FB
F978
0248
FA8F
F1E3
0F5D
E6E1
0C3D
F01A
EFAE
FD53
F528
0B2C
E4B5
E9E9
08C4
13C0
0C02
E999
EC58
1314
083C
167C
DFED
01B1
D715
0352
F408
FE9C
E4AA
EC39
FE7E
0724
FD75
2836
0849
028F
E22E
0AD5
E7CE
F2D8
0476
15FA
143B
F4A9
1F44
0FA6
F994
EA97
0024
107D
0A43
041F
DF53
25FF
F28E
F24C
E60B
102A
2850
F0A3
15F9
011F
F211
07AB
0BE4
0ACE
0B7E
FF2F
0102
070F
DFD4
07C3
0D8C
0277
F36D
1664
E868
0A26
31DC
0BC9
13A8
E927
FB81
F296
0F7A
FB7E
F481
E657
FFAF
EE87
1492
1EF5
E45F
EF48
3B35
FDB8
15BC
DF45
DFE5
FE48
DB21
1D45
F068
F3D3
EE71
089A
1FAB
FE61
09E9
EC4D
0DF2
FABF
F5F2
EF24
0219
F691
1443
0C41
1F8A
05B5
11B0
FD7D
EAFA
00BA
FEA7
F909
0892
E216
035D
04AC
ECDE
1689
B976
27BA
FBCA
ED02
EB1F
F5E1
124A
EE87
FD50
F45B
F40C
F619
0D03
F4FA
09BB
0C3C
0104
08EE
D9A6
F690
D320
FD21
0C59
128E
0DC9
EA25
EEF0
FCC9
FFF4
07A2
13A0
048A
2228
ECD1
1101
05D9
17C0
1CE8
05E8
F7CE
14E9
FD24
36B4
0FBF
15B3
F1EE
EE25
F6AD
0D2D
EB12
F6F4
FCE7
1985
0474
F7E9
1595
F488
E9DE
