// hot_fc1_weights - Q1.15 format
// Shape: (22, 32)
// Count: 704

2430
011D
B7EF
DFEC
0FF5
D142
E3CF
E626
29A9
EC52
409C
17DF
DD9B
D1FB
F44C
EB54
DB6F
4031
398E
26F6
1DA0
084A
E293
CC24
EC91
24C9
12FC
1E65
DCE4
F3F2
061D
3623
39CE
197A
F28F
D69B
2EC8
01E7
D180
0B74
0364
43A3
0880
0B0D
3006
0D4E
CB29
0867
E722
26C1
D09D
051D
F4BF
29E7
0501
21F2
08ED
2A5C
3DE0
E4A1
3E06
3206
C68C
1FE9
EA47
1296
1049
0DF9
FFC0
0DF9
23ED
04AB
08B1
FA1F
0299
E67D
F69E
09AD
F172
DDEA
EFBC
F575
1691
05D7
06B1
F405
0AB7
EEB3
FBA9
EAB3
01DD
1314
0410
0DCA
E68F
15AC
F05E
0A9B
187F
FA6A
27B2
E645
EE84
0CC9
0B05
03F2
04E8
0EA4
09C3
0BC3
011B
0FBE
E173
0AF8
F790
21FC
F1ED
FB95
021D
FD07
06A4
D3BD
0510
FA75
F364
F1CF
F923
16A3
4078
4924
CA80
D197
FDA7
F512
DF5C
ED45
3678
F2D8
2AD0
FE12
189A
3430
F95A
16A4
FC7E
3B27
F65C
D3FC
224E
3E33
DC31
E34D
D6A8
299F
18EF
0C79
17D3
3E34
CC8C
2C35
0666
0D33
2CC9
014F
F4A8
0E5D
FC67
0E0A
CE9D
04E4
D7AE
E49D
3135
2D62
CF4A
FA5E
168B
093B
BEF8
0546
D79B
FADE
41C8
32A7
ED0E
EB1F
2D7C
DEA3
16F7
1229
F9B1
ED55
FC06
ED6C
02CA
0324
EFBD
E2C1
EE51
FC50
02AF
EF0E
EB95
F14E
FA69
0BE9
08FE
1192
1164
FA46
FFB6
0C45
0AE4
FAC2
EFBF
0A96
EEC5
F68C
1A9B
0DE2
0C67
0414
E969
ECE3
FC37
131D
0455
0231
F71E
0E98
1B0B
1DB6
0EEA
F0D0
F5F1
F623
E6FE
F665
114C
0127
0A3A
F94C
076F
08CA
F412
F0F1
E2E5
0FE2
F6C7
04DE
0A5D
ED26
045C
01DB
F260
ECA8
E6A4
FD49
221A
0C14
FD1C
16FB
1454
EACA
0189
FC94
EED2
F367
023A
141D
1ABA
F863
F2BD
DD01
2418
0FF6
FEA1
F6E2
FAD3
F0B4
F9BA
D567
FF05
13BA
F4F1
F621
218B
05DC
1D13
E29C
E2EC
0628
220B
D9A0
0D2C
1DB1
1F33
FE33
00AB
2063
EB00
DE10
FF3C
EEAF
E376
F8F1
04E5
FD48
054F
0C66
16BD
03E2
FB8D
15C7
DF33
0C95
D8E1
085D
ED18
13B7
0ABE
F5CB
052F
FDC5
0CC0
098C
1241
EFD5
0AE5
0ABF
05BD
00A2
0234
FFCA
042B
FD0F
0939
098E
FC5A
0606
EEF2
EF96
FE52
FF45
0148
0077
07F9
FAAC
FD0B
F17F
ECDF
FE83
E6AB
0629
F62E
0446
04D0
F1AD
F925
EF91
F9EA
0BF3
02A6
098D
0E57
FDA5
0454
F9FD
0B72
F7D8
E989
FBFA
1061
02AB
E87B
097E
FE4D
093C
F35C
FA7F
EF7A
04A8
0B4D
0839
0479
00D1
FCD0
F034
1C7A
EEA5
DE40
FAF3
F188
08D6
F7BD
16B7
F5CF
DDFA
F0ED
FE0A
0CB9
E8E3
F9CE
E3AD
F5F6
0C83
1558
FBD4
0715
FB1B
F3BF
FC87
F472
E99A
F867
F6AA
FBA3
00FA
FBA0
FB4B
001B
146F
EDC4
FDDC
F220
ED78
0B9E
080E
FADF
F1B3
06EC
1AF8
01EF
FB78
F258
E1C6
E74B
FE3E
F7F3
1720
EC3E
0077
FDAD
F8D7
FFBA
1075
17BD
F08D
EB68
14CE
0915
F0AC
FB29
FFA7
F265
FFAB
E752
FFC3
0AD0
1247
0D3F
037B
06EE
0F85
EE42
03E8
0495
FD8A
0A73
F451
0B7F
F655
F9CA
FF68
F152
F879
F424
02B4
1E6D
0C53
17AF
03B7
F28A
F0A4
0A3F
FDFC
004D
08E0
0FD8
F7EF
0716
06A0
0AC4
F4C2
0829
F4A9
FC2F
14A1
F916
F5F3
F8EB
0D02
23AF
09A8
008B
F661
093A
0F78
FB52
F93C
F6BE
FCA1
FA5F
E1D2
E2FE
00DA
0C1E
133F
0D22
16A3
06EB
0A96
F3B0
12EA
FC84
FED0
FA40
05C8
F6AE
170F
F46F
E8BC
18C5
1700
169F
089B
1995
0ECB
03DA
F8A1
1297
0980
06A7
0FC6
F059
F313
000F
FA57
F537
0D1B
FE2E
E9EF
FC39
0CFD
0DFA
05A3
0C95
092E
F2A6
0BE6
F59F
F599
EBC3
FCB2
0884
164F
10A5
07EA
04FE
06B6
FDC6
FCC9
FB4B
F2B4
18E2
011B
06E6
F43C
F228
0C9E
07C1
FFEA
03B0
2143
0ADA
03BB
F707
06CE
F8E6
EF29
F611
028D
0680
F9EA
EE03
F6BC
E59D
FBA3
018A
11A3
12AB
0494
F407
F46A
FFFF
0D4C
09D5
F3C0
FA0A
F74F
0F07
0973
F123
FAA9
0F60
07F7
FBB7
0255
F603
E9C9
EFA3
0A77
F370
0BC9
01B7
F03E
1866
0177
0F84
F339
F44B
E4FC
08FE
0494
FFB7
0394
10E0
FBDF
0137
0654
08DD
F42D
1695
FFFC
D892
07C1
0949
E31F
F998
E5C0
FFD9
F326
F2BA
F4DA
0E99
0666
08B5
F87F
035C
0E80
19F2
F955
F797
FEA1
FC67
0B1D
094E
2523
F7CC
FEB0
F498
EFA7
026D
EA30
F1D6
0529
0DF7
FE7D
F689
EA86
11B6
F6E2
01C0
1280
F559
FFC2
09D5
FD01
F709
1766
1621
005E
F664
F3AB
0F44
F2DB
1972
0AFA
EF2C
FD09
190E
0200
0802
F0D9
