// normal_fc2_weights - Q1.15 format
// Shape: (32, 16)
// Count: 512

24FE
F9D8
15E4
1440
03CD
085B
EA63
F5D2
1A1E
13B8
241D
020D
FBB0
F0C8
1419
EC63
03BD
25FB
F3F1
0183
F0C4
19D2
1088
ED40
E12C
1F57
0757
F4F3
EDEC
2FC8
0CEC
1351
0807
1090
EEB0
F6A4
E06B
2398
EC26
0BAD
F0BF
FDFC
FE7E
E571
F3C2
117C
1A46
11CB
FDAC
FB6B
2479
001A
F5E0
F55E
0589
2809
1B9E
D626
1051
0A3B
159E
FD9B
F135
E783
0D3C
E287
27CD
1D59
1E43
E973
F797
FEC7
1B94
1F48
0A89
108F
F229
FFB4
207E
E808
EE2A
E4F5
0741
F025
E186
FEEA
FCBF
18BC
F068
F356
EC68
0934
21F5
FA1E
FA86
FC70
FE2A
00CC
0686
F8E4
F3F5
10EA
1EAD
16AB
F407
E8B3
EACA
E338
151F
0748
FC13
19E1
0D4A
012C
F538
F83E
1777
123D
FAC8
181F
1D44
EC05
1A70
1CF6
1FFA
ECF2
0150
EDC1
0CF4
1C20
EF16
043F
07E6
19A3
0CE0
F8E8
FED1
0B70
FFA4
0029
FFCA
1546
F6B2
141B
068F
14D9
12B0
1012
0B9E
1C27
FDAD
0C03
0CEF
0BBF
F646
04C8
0564
011A
118C
0750
DFED
0403
EF07
E5CF
145D
F0F8
F2B8
F604
0873
EE9E
07C1
1A3D
EB15
099B
E62D
F633
0CEF
0C5F
F556
0828
1596
0C8B
048A
FDC2
FFAA
EF1A
EFCD
1176
FCB8
026F
11BA
0ABE
F95C
163C
0BA4
14A8
FC54
00F4
FF93
F20A
F2E6
FACF
F7F9
0EE2
0589
ECB1
06D3
077F
E85D
0E98
0879
E7C6
F184
FBC9
1D70
05AB
0B49
04CE
E335
F6E6
1095
DB1B
019B
FB62
FCAB
F88E
FB3C
0255
ED79
06CB
FAA4
1F50
16D9
D92B
11E8
F09A
287B
DD38
145C
F913
EFBC
09DD
EDBB
F783
E632
16CD
226B
057F
E4F1
031D
DACD
0034
FE0B
F730
E2DB
162A
273D
0A61
F162
107C
2850
EC92
E977
F302
0758
237E
106A
0F24
E85B
0DA2
019B
E7ED
1C7C
1990
F303
1CDD
22CE
157D
0973
F50E
0A4D
02A4
FC03
22F4
116C
0924
FB0A
0DE6
127A
1DCF
FFC5
00B4
0600
210A
F8EC
F884
EACF
04E6
FAA0
080F
F7E7
F16A
F472
0B29
EF52
F07E
2397
EC5B
E405
EF82
17EB
0BB3
0638
0757
F775
EFA0
12E2
E2FF
0A5F
F56F
128B
11C3
16AF
ED02
0BEB
0108
01C1
1864
F278
19E2
E484
0BAD
1B61
FEE4
F084
1A75
E8ED
150D
245E
FA20
F5E9
0639
152F
0DAC
FE0E
EC5C
F48D
F1F5
23FE
EB32
0D9F
0C4A
E2B9
E8AA
2239
D606
0AB0
0189
1672
0408
3659
FEC5
1C6D
0097
1345
E467
F994
FC89
0115
DF51
1A15
2674
067A
FD41
FF0F
F75D
1588
F75A
1DDC
FE58
F0D6
F870
155B
02B8
F3F1
0820
F7A0
0F8B
DA49
2659
077E
0912
00B2
1175
F6E0
E771
1AA1
F82A
ECDD
250A
09D2
EB93
0678
1464
1DF7
18AD
05DF
EF25
08DC
1EC4
1CF6
040D
0CDE
FCDB
05A6
F0EB
19FC
F676
F635
13FC
04B1
0EE8
1C42
FBD8
007F
F478
0084
EC91
1B15
F8CE
0B4A
0869
ED3F
0C07
FF3F
FD10
DE79
048E
1185
1957
0D9C
C97F
0FFD
04E7
1DFE
EE80
D57B
20BF
E20A
FC67
2799
FB5C
CD0A
1D20
1676
36AF
FD15
CD7D
F6EC
E4D4
3459
C58C
E43D
0A82
FD4B
0F7F
F7DE
03E6
EA90
1948
0F6E
FD74
DCF8
1F3B
F73F
FC01
1117
20A1
FF14
1FF9
ECCB
F8B5
00EF
10D1
FC81
F528
F7E0
FCE9
E6F9
1856
EE9B
FFF1
0A7D
1DD2
FA2D
FAD6
FB6D
05E1
EC4E
E777
CB72
3330
1141
031B
E3CF
1D76
DA1E
EC53
2650
F514
F68A
2885
