// normal_fc1_weights - Q1.15 format
// Shape: (22, 32)
// Count: 704

1512
D761
E292
46AE
1576
2532
1871
272D
CE1E
DF0E
0187
EDAE
F1C3
297F
428C
EF7D
D06D
D941
EC42
3620
F6B6
2918
2417
39B7
F9CE
031A
FC0B
4BBD
2AD6
C8F4
D6DA
0FFA
CC78
31BF
1A63
EBA5
C474
1D26
110F
E7CC
1060
1609
FF89
0DE8
010D
20C1
055B
43CB
C6A5
CC4C
0F51
1AD5
2162
26B2
DC81
D157
2C43
D7C5
21C2
0EEB
2DE0
2B26
0EE2
38A8
0F98
09EE
EEAB
ECEA
FCEC
0ADD
0BD0
15AA
0291
E732
F4A2
EEFE
FC4C
FA26
E959
FC54
FF88
FC4F
092C
09A9
10A5
F946
FA70
FA15
EE28
FAC1
249E
DEBD
E5F6
F037
1930
F50E
1761
1072
F115
F1D4
15C1
F0A0
1E55
0F06
004E
F298
F1FE
FC5E
018D
1E3E
0F90
FD8B
FBBA
EB84
FEA6
0780
21EE
0175
0FC0
F0DA
F656
E0C2
FD78
062B
ECC9
FB20
0A9F
09D8
D43F
F3FD
0BB1
2CA8
CB65
01B0
2304
2EC2
F9E5
DEE3
03E4
0269
0830
2347
1ABA
2F43
E444
F713
F30F
F572
19A6
0985
355C
F4ED
19DA
E416
2EB9
2D35
3046
0F2C
05EA
3493
05BB
2306
248A
F12E
CEB8
E2E6
1BDA
EB37
195D
1578
EE03
1CA0
1146
ED17
E7F4
2841
E667
0850
2DE6
D9F1
089A
E734
BF09
DF9F
06D5
CBFA
E483
E665
F644
21E7
FA4F
486E
083C
F3DC
05BB
1174
F2C2
F269
00BA
FE18
0598
E9D2
0A23
F7C0
0291
0C1E
EFFC
FCE8
F063
019C
F181
08F8
FDA0
019E
FA26
0121
1601
11B5
1B06
FD31
FA9E
0ACE
F2F5
0F20
FB4E
00DA
FCF3
0F06
0DE3
F10E
0D47
FB3B
1588
109F
15C8
FE06
FAA6
F711
F7C1
F444
E97F
022D
F6F0
F206
FEB3
FA17
F946
FC39
0254
FC4E
FF68
F8AF
0160
F07E
E45E
F0C2
0F4D
FCEC
E94B
ED5D
10FA
E03C
FDB5
F47B
EE19
0E5A
F192
E5DE
E1A5
E549
E23C
D065
1867
0A3D
0079
081C
EC68
E0F1
0DE7
05B5
F903
0817
F73D
DF68
F4B6
F667
F637
E93A
FC75
E0EE
ECF4
1CDC
2FFA
229E
FB09
EEC0
EB0C
18ED
08D7
241A
E587
F841
0797
0103
DE12
0223
F054
099C
EE61
EF00
F6B6
1D5E
0C81
025E
1A74
0D84
0EA2
E9EC
F5D2
F986
F011
0E65
048C
EE54
0260
FA9F
01A0
0C7A
0FF9
FED6
FED9
0E21
090B
112F
17F3
F45A
F2BA
0855
E836
ED27
ECBF
FE26
FF82
0854
FB7E
0612
FB16
0F44
F60E
04DF
EE6D
FB05
F4F5
F0A7
F296
EE61
F56E
F9B3
FAC8
F18F
085F
08C6
FF48
EA05
EE12
0D0A
0E00
0F09
F424
0878
F06A
07AE
0E66
0B8B
0E9A
FB0F
F6B2
037F
06E1
04A3
D90E
0A7F
F185
E5C8
0EEC
0BBB
DBD8
EFB5
FC56
0688
FA98
09E9
F193
12B7
F4A7
043B
EDF5
01B5
068B
1B2F
ED59
F668
14D7
FFF3
16FF
1834
F012
F81E
03DB
E820
0B4E
0BDF
F691
F57A
F2E3
005D
EB2B
EB67
FE81
06CB
03E1
0615
10B2
03ED
04A6
0640
0966
FF26
1A04
16DC
FB19
FC4E
0F2B
F17D
0299
F531
0696
079F
2017
FAD8
13D9
0CD3
002C
FF81
F1AD
005C
00F7
F86A
08E9
02DA
09B0
069A
1695
0EF2
072A
F7F7
F22C
FF66
00AA
0229
EEAB
ECAF
EDE4
0C0A
0A45
F79A
15C5
0F9E
0E85
F82B
F225
F414
E7FC
FAE2
ED5B
F33D
1632
FDE7
091E
ED1A
0B23
03F7
106A
06C9
0A85
19C5
FBB3
0307
E927
04AB
058D
145D
0365
F45B
0651
013C
07E2
0FA5
1FD4
05E3
F8D5
113B
FC07
0873
F6B2
FC52
1D19
F92F
1BD9
1112
1378
05DD
EA96
FD34
0282
FC6B
FCE3
0301
F235
0776
0528
FBE2
1F82
17B9
1695
13E0
1B33
FBFD
FC5D
0F54
073E
F81A
1575
0BA7
11AE
02BB
0B74
0F98
F53A
0079
FC99
1A5B
1B62
E626
F72C
1510
0466
EEED
FDCF
0239
F62E
0D2C
0944
EE8C
0C26
FD7B
0CA2
F738
0745
07F4
007F
1152
FB1D
F86D
0A01
0907
F816
EF74
0773
EDC8
ECC8
FBBC
E8C5
F712
EBF9
0C45
FBB3
F86C
04BE
03B0
F613
F90E
F1CA
FD83
0681
0930
E471
044E
224C
0143
FAA4
0008
0ADA
0221
EE32
F622
F829
0932
0162
04BA
0D2A
0381
FAB3
04FA
FB15
FC78
0748
0D0C
0308
0317
EF18
027D
EE23
F7AD
F6DF
02ED
08FC
F4B9
16FF
EB4F
FE54
FF31
F5E5
F3B9
10AC
F130
F4D7
FB00
F749
E6CA
FCE3
0380
FD48
0B3D
E193
066E
0B8D
F57F
095E
03A7
13AC
FE0C
FD51
F145
0222
07DD
0E2E
F609
F3A0
0A56
F24D
1064
05EE
EB37
1507
FA78
06ED
FD8F
FF25
05CE
FBBD
F86D
1117
FD94
EE23
F424
05A9
F79D
F78F
FB87
0347
0F62
F15F
FD5A
072B
08E9
0469
FDC5
058A
163B
F96B
F1C0
13EA
FC2E
E41E
04A5
F896
0565
F47A
F955
F452
1043
F112
0CBE
1188
FABC
FE7E
1AA5
082F
F165
F635
F919
DBA6
0908
