8017
8018
801A
801C
801D
801F
8021
8023
8025
8028
802A
802D
8030
8033
8036
8039
803D
8041
8045
8049
804E
8053
8058
805D
8063
806A
8070
8078
807F
8087
8090
8099
80A3
80AD
80B9
80C4
80D1
80DE
80ED
80FC
810C
811D
812F
8142
8157
816D
8184
819D
81B8
81D4
81F2
8211
8233
8257
827D
82A6
82D1
82FF
8330
8364
839B
83D5
8413
8456
849C
84E6
8535
858A
85E3
8642
86A6
8711
8782
87FA
8879
8900
898F
8A27
8AC7
8B71
8C25
8CE3
8DAD
8E82
8F63
9050
914C
9255
936C
9493
95CA
9711
986A
99D4
9B51
9CE1
9E85
A03D
A20B
A3EE
A5E7
A7F7
AA1E
AC5D
AEB4
B123
B3AB
B64B
B903
BBD5
BEBE
C1C0
C4DA
C80B
CB52
CEAF
D222
D5A8
D941
DCEC
E0A7
E470
E847
EC29
F015
F409
F803
FC00
0000
0400
07FD
0BF7
0FEB
13D7
17B9
1B90
1F59
2314
26BF
2A58
2DDE
3151
34AE
37F5
3B26
3E40
4142
442B
46FD
49B5
4C55
4EDD
514C
53A3
55E2
5809
5A19
5C12
5DF5
5FC3
617B
631F
64AF
662C
6796
68EF
6A36
6B6D
6C94
6DAB
6EB4
6FB0
709D
717E
7253
731D
73DB
748F
7539
75D9
7671
7700
7787
7806
787E
78EF
795A
79BE
7A1D
7A76
7ACB
7B1A
7B64
7BAA
7BED
7C2B
7C65
7C9C
7CD0
7D01
7D2F
7D5A
7D83
7DA9
7DCD
7DEF
7E0E
7E2C
7E48
7E63
7E7C
7E93
7EA9
7EBE
7ED1
7EE3
7EF4
7F04
7F13
7F22
7F2F
7F3C
7F47
7F53
7F5D
7F67
7F70
7F79
7F81
7F88
7F90
7F96
7F9D
7FA3
7FA8
7FAD
7FB2
7FB7
7FBB
7FBF
7FC3
7FC7
7FCA
7FCD
7FD0
7FD3
7FD6
7FD8
7FDB
7FDD
7FDF
7FE1
7FE3
7FE4
7FE6
7FE8
