// Tanh LUT Initialization
// 256 entries, Q1.15 format
// Input range: [-4, 4) mapped to addresses [0, 255]
// Output: tanh(x) in Q1.15 format

8017  // addr=  0, x=-4.000, tanh=-0.999329
8018  // addr=  1, x=-3.969, tanh=-0.999286
801A  // addr=  2, x=-3.938, tanh=-0.999240
801C  // addr=  3, x=-3.906, tanh=-0.999191
801D  // addr=  4, x=-3.875, tanh=-0.999139
801F  // addr=  5, x=-3.844, tanh=-0.999083
8021  // addr=  6, x=-3.812, tanh=-0.999024
8023  // addr=  7, x=-3.781, tanh=-0.998961
8025  // addr=  8, x=-3.750, tanh=-0.998894
8028  // addr=  9, x=-3.719, tanh=-0.998823
802A  // addr= 10, x=-3.688, tanh=-0.998747
802D  // addr= 11, x=-3.656, tanh=-0.998667
8030  // addr= 12, x=-3.625, tanh=-0.998581
8033  // addr= 13, x=-3.594, tanh=-0.998489
8036  // addr= 14, x=-3.562, tanh=-0.998392
8039  // addr= 15, x=-3.531, tanh=-0.998288
803D  // addr= 16, x=-3.500, tanh=-0.998178
8041  // addr= 17, x=-3.469, tanh=-0.998060
8045  // addr= 18, x=-3.438, tanh=-0.997936
8049  // addr= 19, x=-3.406, tanh=-0.997803
804E  // addr= 20, x=-3.375, tanh=-0.997661
8053  // addr= 21, x=-3.344, tanh=-0.997510
8058  // addr= 22, x=-3.312, tanh=-0.997350
805D  // addr= 23, x=-3.281, tanh=-0.997179
8063  // addr= 24, x=-3.250, tanh=-0.996998
806A  // addr= 25, x=-3.219, tanh=-0.996804
8070  // addr= 26, x=-3.188, tanh=-0.996599
8078  // addr= 27, x=-3.156, tanh=-0.996380
807F  // addr= 28, x=-3.125, tanh=-0.996147
8087  // addr= 29, x=-3.094, tanh=-0.995899
8090  // addr= 30, x=-3.062, tanh=-0.995635
8099  // addr= 31, x=-3.031, tanh=-0.995354
80A3  // addr= 32, x=-3.000, tanh=-0.995055
80AD  // addr= 33, x=-2.969, tanh=-0.994737
80B9  // addr= 34, x=-2.938, tanh=-0.994398
80C4  // addr= 35, x=-2.906, tanh=-0.994038
80D1  // addr= 36, x=-2.875, tanh=-0.993655
80DE  // addr= 37, x=-2.844, tanh=-0.993247
80ED  // addr= 38, x=-2.812, tanh=-0.992813
80FC  // addr= 39, x=-2.781, tanh=-0.992351
810C  // addr= 40, x=-2.750, tanh=-0.991860
811D  // addr= 41, x=-2.719, tanh=-0.991337
812F  // addr= 42, x=-2.688, tanh=-0.990781
8142  // addr= 43, x=-2.656, tanh=-0.990189
8157  // addr= 44, x=-2.625, tanh=-0.989560
816D  // addr= 45, x=-2.594, tanh=-0.988890
8184  // addr= 46, x=-2.562, tanh=-0.988178
819D  // addr= 47, x=-2.531, tanh=-0.987420
81B8  // addr= 48, x=-2.500, tanh=-0.986614
81D4  // addr= 49, x=-2.469, tanh=-0.985757
81F2  // addr= 50, x=-2.438, tanh=-0.984846
8211  // addr= 51, x=-2.406, tanh=-0.983876
8233  // addr= 52, x=-2.375, tanh=-0.982845
8257  // addr= 53, x=-2.344, tanh=-0.981749
827D  // addr= 54, x=-2.312, tanh=-0.980583
82A6  // addr= 55, x=-2.281, tanh=-0.979344
82D1  // addr= 56, x=-2.250, tanh=-0.978026
82FF  // addr= 57, x=-2.219, tanh=-0.976625
8330  // addr= 58, x=-2.188, tanh=-0.975137
8364  // addr= 59, x=-2.156, tanh=-0.973554
839B  // addr= 60, x=-2.125, tanh=-0.971873
83D5  // addr= 61, x=-2.094, tanh=-0.970086
8413  // addr= 62, x=-2.062, tanh=-0.968187
8456  // addr= 63, x=-2.031, tanh=-0.966170
849C  // addr= 64, x=-2.000, tanh=-0.964028
84E6  // addr= 65, x=-1.969, tanh=-0.961752
8535  // addr= 66, x=-1.938, tanh=-0.959335
858A  // addr= 67, x=-1.906, tanh=-0.956769
85E3  // addr= 68, x=-1.875, tanh=-0.954045
8642  // addr= 69, x=-1.844, tanh=-0.951154
86A6  // addr= 70, x=-1.812, tanh=-0.948085
8711  // addr= 71, x=-1.781, tanh=-0.944829
8782  // addr= 72, x=-1.750, tanh=-0.941376
87FA  // addr= 73, x=-1.719, tanh=-0.937712
8879  // addr= 74, x=-1.688, tanh=-0.933828
8900  // addr= 75, x=-1.656, tanh=-0.929710
898F  // addr= 76, x=-1.625, tanh=-0.925346
8A27  // addr= 77, x=-1.594, tanh=-0.920722
8AC7  // addr= 78, x=-1.562, tanh=-0.915825
8B71  // addr= 79, x=-1.531, tanh=-0.910638
8C25  // addr= 80, x=-1.500, tanh=-0.905148
8CE3  // addr= 81, x=-1.469, tanh=-0.899339
8DAD  // addr= 82, x=-1.438, tanh=-0.893193
8E82  // addr= 83, x=-1.406, tanh=-0.886695
8F63  // addr= 84, x=-1.375, tanh=-0.879827
9050  // addr= 85, x=-1.344, tanh=-0.872570
914C  // addr= 86, x=-1.312, tanh=-0.864907
9255  // addr= 87, x=-1.281, tanh=-0.856818
936C  // addr= 88, x=-1.250, tanh=-0.848284
9493  // addr= 89, x=-1.219, tanh=-0.839285
95CA  // addr= 90, x=-1.188, tanh=-0.829802
9711  // addr= 91, x=-1.156, tanh=-0.819814
986A  // addr= 92, x=-1.125, tanh=-0.809301
99D4  // addr= 93, x=-1.094, tanh=-0.798243
9B51  // addr= 94, x=-1.062, tanh=-0.786619
9CE1  // addr= 95, x=-1.031, tanh=-0.774409
9E85  // addr= 96, x=-1.000, tanh=-0.761594
A03D  // addr= 97, x=-0.969, tanh=-0.748154
A20B  // addr= 98, x=-0.938, tanh=-0.734072
A3EE  // addr= 99, x=-0.906, tanh=-0.719328
A5E7  // addr=100, x=-0.875, tanh=-0.703906
A7F7  // addr=101, x=-0.844, tanh=-0.687790
AA1E  // addr=102, x=-0.812, tanh=-0.670967
AC5D  // addr=103, x=-0.781, tanh=-0.653424
AEB4  // addr=104, x=-0.750, tanh=-0.635149
B123  // addr=105, x=-0.719, tanh=-0.616134
B3AB  // addr=106, x=-0.688, tanh=-0.596374
B64B  // addr=107, x=-0.656, tanh=-0.575862
B903  // addr=108, x=-0.625, tanh=-0.554600
BBD5  // addr=109, x=-0.594, tanh=-0.532587
BEBE  // addr=110, x=-0.562, tanh=-0.509830
C1C0  // addr=111, x=-0.531, tanh=-0.486336
C4DA  // addr=112, x=-0.500, tanh=-0.462117
C80B  // addr=113, x=-0.469, tanh=-0.437189
CB52  // addr=114, x=-0.438, tanh=-0.411570
CEAF  // addr=115, x=-0.406, tanh=-0.385284
D222  // addr=116, x=-0.375, tanh=-0.358357
D5A8  // addr=117, x=-0.344, tanh=-0.330821
D941  // addr=118, x=-0.312, tanh=-0.302710
DCEC  // addr=119, x=-0.281, tanh=-0.274062
E0A7  // addr=120, x=-0.250, tanh=-0.244919
E470  // addr=121, x=-0.219, tanh=-0.215326
E847  // addr=122, x=-0.188, tanh=-0.185333
EC29  // addr=123, x=-0.156, tanh=-0.154991
F015  // addr=124, x=-0.125, tanh=-0.124353
F409  // addr=125, x=-0.094, tanh=-0.093476
F803  // addr=126, x=-0.062, tanh=-0.062419
FC00  // addr=127, x=-0.031, tanh=-0.031240
0000  // addr=128, x=+0.000, tanh=+0.000000
0400  // addr=129, x=+0.031, tanh=+0.031240
07FD  // addr=130, x=+0.062, tanh=+0.062419
0BF7  // addr=131, x=+0.094, tanh=+0.093476
0FEB  // addr=132, x=+0.125, tanh=+0.124353
13D7  // addr=133, x=+0.156, tanh=+0.154991
17B9  // addr=134, x=+0.188, tanh=+0.185333
1B90  // addr=135, x=+0.219, tanh=+0.215326
1F59  // addr=136, x=+0.250, tanh=+0.244919
2314  // addr=137, x=+0.281, tanh=+0.274062
26BF  // addr=138, x=+0.312, tanh=+0.302710
2A58  // addr=139, x=+0.344, tanh=+0.330821
2DDE  // addr=140, x=+0.375, tanh=+0.358357
3151  // addr=141, x=+0.406, tanh=+0.385284
34AE  // addr=142, x=+0.438, tanh=+0.411570
37F5  // addr=143, x=+0.469, tanh=+0.437189
3B26  // addr=144, x=+0.500, tanh=+0.462117
3E40  // addr=145, x=+0.531, tanh=+0.486336
4142  // addr=146, x=+0.562, tanh=+0.509830
442B  // addr=147, x=+0.594, tanh=+0.532587
46FD  // addr=148, x=+0.625, tanh=+0.554600
49B5  // addr=149, x=+0.656, tanh=+0.575862
4C55  // addr=150, x=+0.688, tanh=+0.596374
4EDD  // addr=151, x=+0.719, tanh=+0.616134
514C  // addr=152, x=+0.750, tanh=+0.635149
53A3  // addr=153, x=+0.781, tanh=+0.653424
55E2  // addr=154, x=+0.812, tanh=+0.670967
5809  // addr=155, x=+0.844, tanh=+0.687790
5A19  // addr=156, x=+0.875, tanh=+0.703906
5C12  // addr=157, x=+0.906, tanh=+0.719328
5DF5  // addr=158, x=+0.938, tanh=+0.734072
5FC3  // addr=159, x=+0.969, tanh=+0.748154
617B  // addr=160, x=+1.000, tanh=+0.761594
631F  // addr=161, x=+1.031, tanh=+0.774409
64AF  // addr=162, x=+1.062, tanh=+0.786619
662C  // addr=163, x=+1.094, tanh=+0.798243
6796  // addr=164, x=+1.125, tanh=+0.809301
68EF  // addr=165, x=+1.156, tanh=+0.819814
6A36  // addr=166, x=+1.188, tanh=+0.829802
6B6D  // addr=167, x=+1.219, tanh=+0.839285
6C94  // addr=168, x=+1.250, tanh=+0.848284
6DAB  // addr=169, x=+1.281, tanh=+0.856818
6EB4  // addr=170, x=+1.312, tanh=+0.864907
6FB0  // addr=171, x=+1.344, tanh=+0.872570
709D  // addr=172, x=+1.375, tanh=+0.879827
717E  // addr=173, x=+1.406, tanh=+0.886695
7253  // addr=174, x=+1.438, tanh=+0.893193
731D  // addr=175, x=+1.469, tanh=+0.899339
73DB  // addr=176, x=+1.500, tanh=+0.905148
748F  // addr=177, x=+1.531, tanh=+0.910638
7539  // addr=178, x=+1.562, tanh=+0.915825
75D9  // addr=179, x=+1.594, tanh=+0.920722
7671  // addr=180, x=+1.625, tanh=+0.925346
7700  // addr=181, x=+1.656, tanh=+0.929710
7787  // addr=182, x=+1.688, tanh=+0.933828
7806  // addr=183, x=+1.719, tanh=+0.937712
787E  // addr=184, x=+1.750, tanh=+0.941376
78EF  // addr=185, x=+1.781, tanh=+0.944829
795A  // addr=186, x=+1.812, tanh=+0.948085
79BE  // addr=187, x=+1.844, tanh=+0.951154
7A1D  // addr=188, x=+1.875, tanh=+0.954045
7A76  // addr=189, x=+1.906, tanh=+0.956769
7ACB  // addr=190, x=+1.938, tanh=+0.959335
7B1A  // addr=191, x=+1.969, tanh=+0.961752
7B64  // addr=192, x=+2.000, tanh=+0.964028
7BAA  // addr=193, x=+2.031, tanh=+0.966170
7BED  // addr=194, x=+2.062, tanh=+0.968187
7C2B  // addr=195, x=+2.094, tanh=+0.970086
7C65  // addr=196, x=+2.125, tanh=+0.971873
7C9C  // addr=197, x=+2.156, tanh=+0.973554
7CD0  // addr=198, x=+2.188, tanh=+0.975137
7D01  // addr=199, x=+2.219, tanh=+0.976625
7D2F  // addr=200, x=+2.250, tanh=+0.978026
7D5A  // addr=201, x=+2.281, tanh=+0.979344
7D83  // addr=202, x=+2.312, tanh=+0.980583
7DA9  // addr=203, x=+2.344, tanh=+0.981749
7DCD  // addr=204, x=+2.375, tanh=+0.982845
7DEF  // addr=205, x=+2.406, tanh=+0.983876
7E0E  // addr=206, x=+2.438, tanh=+0.984846
7E2C  // addr=207, x=+2.469, tanh=+0.985757
7E48  // addr=208, x=+2.500, tanh=+0.986614
7E63  // addr=209, x=+2.531, tanh=+0.987420
7E7C  // addr=210, x=+2.562, tanh=+0.988178
7E93  // addr=211, x=+2.594, tanh=+0.988890
7EA9  // addr=212, x=+2.625, tanh=+0.989560
7EBE  // addr=213, x=+2.656, tanh=+0.990189
7ED1  // addr=214, x=+2.688, tanh=+0.990781
7EE3  // addr=215, x=+2.719, tanh=+0.991337
7EF4  // addr=216, x=+2.750, tanh=+0.991860
7F04  // addr=217, x=+2.781, tanh=+0.992351
7F13  // addr=218, x=+2.812, tanh=+0.992813
7F22  // addr=219, x=+2.844, tanh=+0.993247
7F2F  // addr=220, x=+2.875, tanh=+0.993655
7F3C  // addr=221, x=+2.906, tanh=+0.994038
7F47  // addr=222, x=+2.938, tanh=+0.994398
7F53  // addr=223, x=+2.969, tanh=+0.994737
7F5D  // addr=224, x=+3.000, tanh=+0.995055
7F67  // addr=225, x=+3.031, tanh=+0.995354
7F70  // addr=226, x=+3.062, tanh=+0.995635
7F79  // addr=227, x=+3.094, tanh=+0.995899
7F81  // addr=228, x=+3.125, tanh=+0.996147
7F88  // addr=229, x=+3.156, tanh=+0.996380
7F90  // addr=230, x=+3.188, tanh=+0.996599
7F96  // addr=231, x=+3.219, tanh=+0.996804
7F9D  // addr=232, x=+3.250, tanh=+0.996998
7FA3  // addr=233, x=+3.281, tanh=+0.997179
7FA8  // addr=234, x=+3.312, tanh=+0.997350
7FAD  // addr=235, x=+3.344, tanh=+0.997510
7FB2  // addr=236, x=+3.375, tanh=+0.997661
7FB7  // addr=237, x=+3.406, tanh=+0.997803
7FBB  // addr=238, x=+3.438, tanh=+0.997936
7FBF  // addr=239, x=+3.469, tanh=+0.998060
7FC3  // addr=240, x=+3.500, tanh=+0.998178
7FC7  // addr=241, x=+3.531, tanh=+0.998288
7FCA  // addr=242, x=+3.562, tanh=+0.998392
7FCD  // addr=243, x=+3.594, tanh=+0.998489
7FD0  // addr=244, x=+3.625, tanh=+0.998581
7FD3  // addr=245, x=+3.656, tanh=+0.998667
7FD6  // addr=246, x=+3.688, tanh=+0.998747
7FD8  // addr=247, x=+3.719, tanh=+0.998823
7FDB  // addr=248, x=+3.750, tanh=+0.998894
7FDD  // addr=249, x=+3.781, tanh=+0.998961
7FDF  // addr=250, x=+3.812, tanh=+0.999024
7FE1  // addr=251, x=+3.844, tanh=+0.999083
7FE3  // addr=252, x=+3.875, tanh=+0.999139
7FE4  // addr=253, x=+3.906, tanh=+0.999191
7FE6  // addr=254, x=+3.938, tanh=+0.999240
7FE8  // addr=255, x=+3.969, tanh=+0.999286
